TRT-100900-EntropyCalibration2
images: 3c008912
/model.0/conv/Conv_output_0: 3e6f5836
/model.0/act/Sigmoid_output_0: 3c010a14
/model.0/act/Mul_output_0: 3dbcb5af
/model.1/conv/Conv_output_0: 3f14f7a2
/model.1/act/Sigmoid_output_0: 3c010a14
/model.1/act/Mul_output_0: 3eb918b0
/model.2/cv1/conv/Conv_output_0: 3ea2213d
/model.2/cv1/act/Sigmoid_output_0: 3c010a14
/model.2/cv1/act/Mul_output_0: 3d94a2bd
/model.22/Reshape_14_output_0: 3e1d4449
/model.21/Split_output_1: 3c996a7b
/model.22/cv3.1/cv3.1.2/Conv_output_0: 3ebab9df
/model.22/Unsqueeze_7_output_0: 3e9f4871
/model.22/Sub_1_output_0: 3e334f7b
ONNXTRT_Broadcast_275_output: 3e810a14
/model.2/Split_output_0: 3dc3a49b
/model.22/Expand_5_output_0: 3e1d4449
/model.22/Range_4_output_0: 3e193bf8
/model.22/cv2.2/cv2.2.2/Conv_output_0: 3de615b9
/model.2/Split_output_1: 3d8e7df1
/model.2/m.0/cv1/conv/Conv_output_0: 3e99d30f
/model.2/m.0/cv1/act/Sigmoid_output_0: 3c010a14
/model.2/m.0/cv1/act/Mul_output_0: 3d983cb6
/model.2/m.0/cv2/conv/Conv_output_0: 3e230073
/model.2/m.0/cv2/act/Sigmoid_output_0: 3c010a14
/model.2/m.0/cv2/act/Mul_output_0: 3d9732c1
/model.2/m.0/Add_output_0: 3e3a5c7d
/model.2/Concat_output_0: 3dc5a114
/model.2/cv2/conv/Conv_output_0: 3e061730
/model.2/cv2/act/Sigmoid_output_0: 3c0110d2
/model.2/cv2/act/Mul_output_0: 3d4554ec
/model.3/conv/Conv_output_0: 3d7d001e
/model.3/act/Sigmoid_output_0: 3c0055fd
/model.3/act/Mul_output_0: 3d1256a8
/model.4/cv1/conv/Conv_output_0: 3d7ed862
/model.4/cv1/act/Sigmoid_output_0: 3c016cc3
/model.4/cv1/act/Mul_output_0: 3ce88cde
/model.22/Div_1_output_0: 3f20b191
output0: 40a0da5c
/model.22/Range_2_output_0: 3e9d4449
/model.22/Mul_5_output_0: 40a0da5c
/model.22/Unsqueeze_10_output_0: 3e1d4449
/model.22/cv2.2/cv2.2.1/act/Sigmoid_output_0: 3c010a14
/model.4/Split_output_0: 3ce88cde
/model.22/dfl/Softmax_output: 3c0110bc
/model.22/dfl/Softmax_output_0: 3c0110bc
/model.22/Add_8_output_0: 3e810a14
/model.4/Split_output_1: 3cd3318d
/model.4/m.0/cv1/conv/Conv_output_0: 3d592c30
/model.4/m.0/cv1/act/Sigmoid_output_0: 3bfffe57
/model.4/m.0/cv1/act/Mul_output_0: 3cb35406
/model.4/m.0/cv2/conv/Conv_output_0: 3d4efe9f
/model.4/m.0/cv2/act/Sigmoid_output_0: 3bfdcc36
/model.4/m.0/cv2/act/Mul_output_0: 3cd2fd4f
/model.4/m.0/Add_output_0: 3d31680a
/model.4/m.1/cv1/conv/Conv_output_0: 3d62711b
/model.4/m.1/cv1/act/Sigmoid_output_0: 3bfc2448
/model.4/m.1/cv1/act/Mul_output_0: 3c74ed4b
/model.4/m.1/cv2/conv/Conv_output_0: 3d7f23c5
/model.4/m.1/cv2/act/Sigmoid_output_0: 3c00cad9
/model.4/m.1/cv2/act/Mul_output_0: 3d26bb42
/model.4/m.1/Add_output_0: 3d8cd999
/model.4/Concat_output_0: 3d409576
/model.4/cv2/conv/Conv_output_0: 3d7c3e23
/model.4/cv2/act/Sigmoid_output_0: 3bffcef9
/model.4/cv2/act/Mul_output_0: 3cc28385
/model.5/conv/Conv_output_0: 3d9bccf5
/model.5/act/Sigmoid_output_0: 3c0018c8
/model.5/act/Mul_output_0: 3ca758f3
/model.6/cv1/conv/Conv_output_0: 3daaf0c3
/model.6/cv1/act/Sigmoid_output_0: 3c006a0d
/model.6/cv1/act/Mul_output_0: 3ce7e017
ONNXTRT_Broadcast_192_output: 3b810a14
/model.22/Concat_22_output_0: 3f204a85
/model.22/Split_1_output_0: 3e8fb681
/model.22/Reshape_15_output_0: 3e1d4449
/model.22/Sub_output_0: 3f2015f7
/model.22/Transpose_output_0: 3f204a85
/model.6/Split_output_0: 3ce7e017
/model.22/Reshape_10_output_0: 3e9f4871
(Unnamed Layer* 390) [Constant]_output: 0
/model.22/Unsqueeze_12_output_0: 3f204a85
/model.6/Split_output_1: 3ca51fe7
/model.6/m.0/cv1/conv/Conv_output_0: 3d844214
/model.6/m.0/cv1/act/Sigmoid_output_0: 3c009064
/model.6/m.0/cv1/act/Mul_output_0: 3c8fc8cb
/model.6/m.0/cv2/conv/Conv_output_0: 3d6dbaf0
/model.6/m.0/cv2/act/Sigmoid_output_0: 3c0014d0
/model.6/m.0/cv2/act/Mul_output_0: 3cb381fc
/model.6/m.0/Add_output_0: 3d2fd6c5
/model.6/m.1/cv1/conv/Conv_output_0: 3d9081f2
/model.6/m.1/cv1/act/Sigmoid_output_0: 3bffb12c
/model.6/m.1/cv1/act/Mul_output_0: 3c511887
/model.6/m.1/cv2/conv/Conv_output_0: 3da27b94
/model.6/m.1/cv2/act/Sigmoid_output_0: 3c00cc3c
/model.6/m.1/cv2/act/Mul_output_0: 3d12bfc3
/model.6/m.1/Add_output_0: 3d845051
/model.6/Concat_output_0: 3d256023
/model.6/cv2/conv/Conv_output_0: 3d6e6773
/model.6/cv2/act/Sigmoid_output_0: 3bfc9ac7
/model.6/cv2/act/Mul_output_0: 3c912e97
/model.7/conv/Conv_output_0: 3d736dc5
/model.7/act/Sigmoid_output_0: 3c04f553
/model.7/act/Mul_output_0: 3ca6473e
/model.8/cv1/conv/Conv_output_0: 3d8fd963
/model.8/cv1/act/Sigmoid_output_0: 3c0099e9
/model.8/cv1/act/Mul_output_0: 3cd11054
ONNXTRT_ShapeShuffle_270_output: 0
/model.22/dfl/Reshape_output_0: 3e8fb681
/model.21/cv1/act/Mul_output_0: 3cb176ec
/model.22/Add_11_output_0: 3fa0b191
/model.22/cv3.1/cv3.1.1/conv/Conv_output_0: 3d9ae1c8
ONNXTRT_ShapeShuffle_263_output: 3c010a14
/model.8/Split_output_0: 3cff3593
/model.22/cv2.1/cv2.1.0/act/Mul_output_0: 3d6d3279
/model.19/act/Sigmoid_output_0: 3c0aaf02
/model.22/cv2.1/cv2.1.1/act/Sigmoid_output_0: 3c010a14
/model.8/Split_output_1: 3c74898c
/model.8/m.0/cv1/conv/Conv_output_0: 3d7f989d
/model.8/m.0/cv1/act/Sigmoid_output_0: 3c02f135
/model.8/m.0/cv1/act/Mul_output_0: 3c917095
/model.8/m.0/cv2/conv/Conv_output_0: 3da1faf6
/model.8/m.0/cv2/act/Sigmoid_output_0: 3c00d5e3
/model.8/m.0/cv2/act/Mul_output_0: 3d10e1e6
/model.8/m.0/Add_output_0: 3d800538
/model.8/Concat_output_0: 3d022893
/model.8/cv2/conv/Conv_output_0: 3d856145
/model.8/cv2/act/Sigmoid_output_0: 3bff5376
/model.8/cv2/act/Mul_output_0: 3cb10fa0
/model.9/cv1/conv/Conv_output_0: 3d3d1236
/model.9/cv1/act/Sigmoid_output_0: 3c000557
/model.9/cv1/act/Mul_output_0: 3d3f357b
/model.9/m/MaxPool_output_0: 3d3f357b
/model.9/m_1/MaxPool_output_0: 3d3f357b
/model.9/m_2/MaxPool_output_0: 3d3f357b
/model.9/Concat_output_0: 3d638f25
/model.9/cv2/conv/Conv_output_0: 3d5baa74
/model.9/cv2/act/Sigmoid_output_0: 3bf9e602
/model.9/cv2/act/Mul_output_0: 3c52bef9
/model.10/Resize_output_0: 3c52bef9
/model.11/Concat_output_0: 3c67f625
/model.12/cv1/conv/Conv_output_0: 3d75eefe
/model.12/cv1/act/Sigmoid_output_0: 3c00a195
/model.12/cv1/act/Mul_output_0: 3d01ca05
/model.22/Split_1_output_1: 3ec0cf93
/model.22/cv3.2/cv3.2.1/act/Mul_output_0: 3d018fbb
/model.22/dfl/Reshape_1_output_0: 3db98fac
/model.22/cv3.2/cv3.2.1/conv/Conv_output_0: 3d543f04
/model.22/cv3.1/cv3.1.0/act/Sigmoid_output_0: 3c009656
/model.22/cv3.2/cv3.2.0/act/Mul_output_0: 3ce76f67
/model.12/Split_output_0: 3d01ca05
/model.22/cv2.1/cv2.1.1/conv/Conv_output_0: 3e7da30c
/model.22/Reshape_7_output_0: 3f204a85
/model.22/cv3.2/cv3.2.0/conv/Conv_output_0: 3d6643aa
/model.12/Split_output_1: 3ca4dbad
/model.12/m.0/cv1/conv/Conv_output_0: 3d6b34c4
/model.12/m.0/cv1/act/Sigmoid_output_0: 3c008004
/model.12/m.0/cv1/act/Mul_output_0: 3c7fa5e9
/model.12/m.0/cv2/conv/Conv_output_0: 3d9156d1
/model.12/m.0/cv2/act/Sigmoid_output_0: 3c0180b3
/model.12/m.0/cv2/act/Mul_output_0: 3d035510
/model.12/Concat_output_0: 3d035510
/model.12/cv2/conv/Conv_output_0: 3d9e7352
/model.12/cv2/act/Sigmoid_output_0: 3c00d341
/model.12/cv2/act/Mul_output_0: 3cd207aa
/model.13/Resize_output_0: 3cd207aa
/model.14/Concat_output_0: 3cd207aa
/model.15/cv1/conv/Conv_output_0: 3d7ba712
/model.15/cv1/act/Sigmoid_output_0: 3c00eaa7
/model.15/cv1/act/Mul_output_0: 3d00ac4e
/model.22/cv2.2/cv2.2.0/conv/Conv_output_0: 3de25e7f
/model.22/Expand_3_output_0: 3e9f4871
/model.22/Constant_67_output_0_output: 3c810a14
/model.22/Concat_24_output_0: 3f20b191
/model.22/cv3.2/cv3.2.0/act/Sigmoid_output_0: 3c052784
/model.22/Reshape_17_output_0: 3e1d4449
/model.15/Split_output_0: 3d256298
ONNXTRT_Broadcast_267_output: 3b810a14
/model.22/Expand_4_output_0: 3e1d4449
/model.20/Concat_output_0: 3c9b1612
/model.15/Split_output_1: 3cc052e9
/model.15/m.0/cv1/conv/Conv_output_0: 3d5b6922
/model.15/m.0/cv1/act/Sigmoid_output_0: 3bfe4929
/model.15/m.0/cv1/act/Mul_output_0: 3c9b4cf7
/model.15/m.0/cv2/conv/Conv_output_0: 3da1e031
/model.15/m.0/cv2/act/Sigmoid_output_0: 3c007f58
/model.15/m.0/cv2/act/Mul_output_0: 3d24f8f2
/model.15/Concat_output_0: 3d252920
/model.15/cv2/conv/Conv_output_0: 3db0f391
/model.15/cv2/act/Sigmoid_output_0: 3c008d45
/model.15/cv2/act/Mul_output_0: 3cd0e8f0
/model.16/conv/Conv_output_0: 3d9b49ee
/model.22/cv2.0/cv2.0.0/conv/Conv_output_0: 3dc2601b
/model.22/cv3.0/cv3.0.0/conv/Conv_output_0: 3d9ce5db
/model.16/act/Sigmoid_output_0: 3c00c1e3
/model.22/cv2.0/cv2.0.0/act/Sigmoid_output_0: 3c031586
/model.22/cv3.0/cv3.0.0/act/Sigmoid_output_0: 3c0416bd
/model.16/act/Mul_output_0: 3cea35e1
/model.22/cv2.0/cv2.0.0/act/Mul_output_0: 3ceaa825
/model.22/cv3.0/cv3.0.0/act/Mul_output_0: 3d132c8d
/model.17/Concat_output_0: 3cea35e1
/model.22/cv2.0/cv2.0.1/conv/Conv_output_0: 3e817944
/model.22/cv3.0/cv3.0.1/conv/Conv_output_0: 3dbeef8b
/model.18/cv1/conv/Conv_output_0: 3d938843
/model.22/cv2.0/cv2.0.1/act/Sigmoid_output_0: 3c010a14
/model.22/cv3.0/cv3.0.1/act/Sigmoid_output_0: 3c010fb8
/model.18/cv1/act/Sigmoid_output_0: 3c00bced
/model.22/cv2.0/cv2.0.1/act/Mul_output_0: 3e0f64b1
/model.22/cv3.0/cv3.0.1/act/Mul_output_0: 3d100d10
/model.18/cv1/act/Mul_output_0: 3ce60536
/model.22/cv2.0/cv2.0.2/Conv_output_0: 3e8fb681
/model.22/cv3.0/cv3.0.2/Conv_output_0: 3ecef49e
/model.22/cv3.1/cv3.1.0/act/Mul_output_0: 3ce7f7ef
/model.22/Transpose_1_output_0: 3e810a14
ONNXTRT_Broadcast_382_output: 3e810a14
/model.21/cv1/conv/Conv_output_0: 3daf2e47
/model.22/Slice_output_0: 3db8b40e
/model.22/Reshape_2_output_0: 3e052c09
/model.18/Split_output_0: 3ce60536
/model.21/m.0/cv2/conv/Conv_output_0: 3dc3eeba
/model.22/cv2.2/cv2.2.1/conv/Conv_output_0: 3e86ca18
/model.21/cv2/act/Sigmoid_output_0: 3c02009e
/model.18/Split_output_1: 3ce5e2d0
/model.22/Concat_output_0: 3e9b397d
/model.18/m.0/cv1/conv/Conv_output_0: 3d5a1108
/model.22/Expand_2_output_0: 3e9f4871
/model.22/Add_5_output_0: 3e010a14
/model.18/m.0/cv1/act/Sigmoid_output_0: 3bfd8a0e
/model.22/ConstantOfShape_2_output_0: 0
ONNXTRT_Broadcast_200_output: 3e010a14
/model.22/Sigmoid_output_0: 3bf64fa5
/model.22/Concat_2_output_0: 3e052c09
ONNXTRT_Broadcast_265_output: 3b810a14
/model.22/Add_10_output_0: 3f21c873
/model.18/m.0/cv1/act/Mul_output_0: 3c7fa084
/model.22/Squeeze_2_output_0_output: 3e810a14
/model.22/Squeeze_1_output_0_output: 3e010a14
/model.22/Reshape_9_output_0: 3e9f4871
/model.22/dfl/Transpose_output_0: 3e8fb681
/model.22/Unsqueeze_9_output_0: 3e1d4449
/model.18/m.0/cv2/conv/Conv_output_0: 3daba81b
ONNXTRT_ShapeShuffle_253_output: 3c010a14
/model.21/cv2/conv/Conv_output_0: 3e093cde
/model.21/Concat_output_0: 3cbfb9ab
/model.22/Constant_14_output_0_output: 0
/model.22/Constant_15_output_0_output: 3c010a14
/model.21/m.0/cv1/conv/Conv_output_0: 3d8b0f6d
ONNXTRT_ShapeShuffle_188_output: 3c010a14
/model.22/Range_3_output_0: 3e9d4449
/model.21/m.0/cv2/act/Sigmoid_output_0: 3c01005e
/model.22/Unsqueeze_6_output_0: 3e9f4871
/model.22/cv2.1/cv2.1.2/Conv_output_0: 3e306c7e
/model.22/Reshape_13_output_0: 3e1d4449
/model.22/Range_output_0: 3f1f4871
ONNXTRT_ShapeShuffle_103_output: 3c010a14
/model.22/cv3.1/cv3.1.0/conv/Conv_output_0: 3d91a717
/model.21/cv1/act/Sigmoid_output_0: 3c00b3c8
/model.22/Reshape_16_output_0: 3e1d4449
ONNXTRT_ShapeShuffle_195_output: 0
/model.22/Slice_1_output_0: 3db56b44
/model.22/Reshape_8_output_0: 3e9f4871
ONNXTRT_Broadcast_190_output: 3b810a14
/model.22/Range_1_output_0: 3f1f4871
ONNXTRT_ShapeShuffle_113_output: 3c010a14
/model.22/ConstantOfShape_1_output_0: 0
/model.18/m.0/cv2/act/Sigmoid_output_0: 3c00ef53
/model.22/Reshape_output_0: 3e9b397d
/model.22/Constant_16_output_0_output: 3b810a14
ONNXTRT_Broadcast_output: 3b810a14
/model.22/Reshape_4_output_0: 3f204a85
ONNXTRT_Broadcast_117_output: 3b810a14
/model.22/Reshape_3_output_0: 3f204a85
/model.19/act/Mul_output_0: 3cc2607a
/model.21/m.0/cv2/act/Mul_output_0: 3cff6df5
/model.18/m.0/cv2/act/Mul_output_0: 3d288226
(Unnamed Layer* 275) [Constant]_output: 0
ONNXTRT_ShapeShuffle_120_output: 0
/model.22/ConstantOfShape_output_0: 0
/model.22/cv2.2/cv2.2.0/act/Sigmoid_output_0: 3c010806
/model.22/Concat_23_output_0: 3e810a14
/model.22/cv3.2/cv3.2.2/Conv_output_0: 3e13399e
/model.22/cv2.2/cv2.2.1/act/Mul_output_0: 3e1f01a1
/model.22/Reshape_5_output_0: 3f204a85
/model.22/Reshape_6_output_0: 3f204a85
/model.18/Concat_output_0: 3d13f29c
/model.22/Squeeze_output_0_output: 3d810a14
ONNXTRT_Broadcast_125_output: 3d810a14
/model.22/Add_2_output_0: 3d810a14
/model.22/cv2.1/cv2.1.0/act/Sigmoid_output_0: 3c010a14
/model.18/cv2/conv/Conv_output_0: 3dba27c1
/model.21/m.0/cv1/act/Mul_output_0: 3c9b12c9
/model.22/Concat_6_output_0: 3e8fb681
ONNXTRT_ShapeShuffle_178_output: 3c010a14
/model.22/Reshape_1_output_0: 3e6a54c3
/model.22/cv2.2/cv2.2.0/act/Mul_output_0: 3d434af8
/model.22/Concat_20_output_0: 3e1d4449
/model.22/cv3.2/cv3.2.1/act/Sigmoid_output_0: 3c03a633
/model.22/cv3.1/cv3.1.1/act/Mul_output_0: 3d14273f
/model.22/Reshape_11_output_0: 3e9f4871
/model.21/m.0/cv1/act/Sigmoid_output_0: 3bfe15f3
/model.22/Expand_output_0: 3f204a85
/model.21/Split_output_0: 3cb118c4
/model.22/cv3.1/cv3.1.1/act/Sigmoid_output_0: 3c011058
(Unnamed Layer* 497) [Constant]_output: 0
/model.22/Concat_1_output_0: 3e6a54c3
/model.22/cv2.1/cv2.1.1/act/Mul_output_0: 3e16c52e
/model.21/cv2/act/Mul_output_0: 3c87dd0c
/model.22/Concat_15_output_0: 3e9f4871
ONNXTRT_Broadcast_375_output: 3c810a14
/model.22/Range_5_output_0: 3e193bf8
/model.22/Reshape_12_output_0: 3e9f4871
/model.22/Expand_1_output_0: 3f204a85
/model.18/cv2/act/Sigmoid_output_0: 3c00a1df
/model.22/dfl/conv/Conv_output_0: 3db98fac
/model.22/Unsqueeze_3_output_0: 3f204a85
/model.22/Unsqueeze_4_output_0: 3f204a85
/model.18/cv2/act/Mul_output_0: 3c9a5f35
/model.22/Concat_10_output_0: 3f204a85
/model.19/conv/Conv_output_0: 3d8dd2fd
/model.22/cv2.1/cv2.1.0/conv/Conv_output_0: 3dc093db
