TRT-100900-EntropyCalibration2
images: 3bf80000
/model.0/conv/Conv_output_0: 3da5d26d
/model.0/act/Sigmoid_output_0: 3c010a14
/model.0/act/Mul_output_0: 3d540c27
/model.1/conv/Conv_output_0: 3eca11b1
/model.1/act/Sigmoid_output_0: 3c010a14
/model.1/act/Mul_output_0: 3dc8e600
/model.2/cv1/conv/Conv_output_0: 3dfe090c
/model.2/cv1/act/Sigmoid_output_0: 3c010a14
/model.2/cv1/act/Mul_output_0: 3d5f7be1
/model.22/cv3.2/cv3.2.0/act/Mul_output_0: 3d41950b
ONNXTRT_Broadcast_269_output: 3b810a14
/model.22/Expand_5_output_0: 3d993bf8
/model.22/Transpose_1_output_0: 3e810a14
/model.22/cv4.2/cv4.2.0/conv/Conv_output_0: 3e581062
/model.22/dfl/Softmax_output_0: 3c010a14
/model.2/Split_output_0: 3d6ba319
/model.22/cv3.1/cv3.1.2/Conv_output_0: 3e959bb5
/model.22/Sigmoid_output_0: 3bfe299f
/model.22/cv4.2/cv4.2.0/act/Sigmoid_output_0: 3c010a14
/model.2/Split_output_1: 3d1f59c2
/model.2/m.0/cv1/conv/Conv_output_0: 3dd6edc5
/model.2/m.0/cv1/act/Sigmoid_output_0: 3c010a14
/model.2/m.0/cv1/act/Mul_output_0: 3d6fc403
/model.2/m.0/cv2/conv/Conv_output_0: 3dfeff21
/model.2/m.0/cv2/act/Sigmoid_output_0: 3c010a14
/model.2/m.0/cv2/act/Mul_output_0: 3d951f4c
/model.2/m.0/Add_output_0: 3e1295e3
/model.2/Concat_output_0: 3db8a942
/model.2/cv2/conv/Conv_output_0: 3dbdf195
/model.2/cv2/act/Sigmoid_output_0: 3c063c6d
/model.2/cv2/act/Mul_output_0: 3d4445e0
/model.3/conv/Conv_output_0: 3db1e4d8
/model.3/act/Sigmoid_output_0: 3c01121c
/model.3/act/Mul_output_0: 3d12680b
/model.4/cv1/conv/Conv_output_0: 3d8adb5c
/model.4/cv1/act/Sigmoid_output_0: 3c020e38
/model.4/cv1/act/Mul_output_0: 3d289163
/model.22/dfl/Softmax_output: 3c010a14
(Unnamed Layer* 538) [Constant]_output: 0
/model.22/Unsqueeze_13_output_0: 3d993bf8
/model.22/dfl/Reshape_output_0: 3f1a7297
ONNXTRT_Broadcast_193_output: 3b810a14
/model.22/Div_1_output_0: 3eac032c
/model.4/Split_output_0: 3d289163
/model.22/Add_10_output_0: 3ea1d8e4
/model.22/Concat_5_output_0: 3f071fbb
/model.20/Concat_output_0: 3cd34a71
/model.4/Split_output_1: 3d019adf
/model.4/m.0/cv1/conv/Conv_output_0: 3d91dee0
/model.4/m.0/cv1/act/Sigmoid_output_0: 3c03f7a2
/model.4/m.0/cv1/act/Mul_output_0: 3d0150ec
/model.4/m.0/cv2/conv/Conv_output_0: 3d8810dc
/model.4/m.0/cv2/act/Sigmoid_output_0: 3c01b27b
/model.4/m.0/cv2/act/Mul_output_0: 3d1434be
/model.4/m.0/Add_output_0: 3d7dbb1f
/model.4/m.1/cv1/conv/Conv_output_0: 3d76f983
/model.4/m.1/cv1/act/Sigmoid_output_0: 3bfd7bc3
/model.4/m.1/cv1/act/Mul_output_0: 3cb3f439
/model.4/m.1/cv2/conv/Conv_output_0: 3dbcd6ab
/model.4/m.1/cv2/act/Sigmoid_output_0: 3c00f1e2
/model.4/m.1/cv2/act/Mul_output_0: 3d6ec73c
/model.4/m.1/Add_output_0: 3dc2900c
/model.4/Concat_output_0: 3d68b242
/model.4/cv2/conv/Conv_output_0: 3db10a9b
/model.4/cv2/act/Sigmoid_output_0: 3c010a14
/model.4/cv2/act/Mul_output_0: 3cea5c55
/model.5/conv/Conv_output_0: 3d963e51
/model.5/act/Sigmoid_output_0: 3c00b8c6
/model.5/act/Mul_output_0: 3cd2a6ec
/model.6/cv1/conv/Conv_output_0: 3d8db4d7
/model.6/cv1/act/Sigmoid_output_0: 3c010b37
/model.6/cv1/act/Mul_output_0: 3d00b1f2
/model.21/Split_output_1: 3ce88e09
/model.22/Reshape_14_output_0: 3e1d4449
/model.22/Reshape_11_output_0: 3e1d4449
/model.22/Transpose_output_0: 3e9f4871
/model.22/Sub_1_output_0: 3e949f0b
/model.22/Concat_24_output_0: 3d993bf8
/model.6/Split_output_0: 3d25c51b
/model.22/Split_1_output_1: 3ebce467
/model.22/Slice_output_0: 3dd69767
/model.22/dfl/Reshape_1_output_0: 3de382f4
/model.6/Split_output_1: 3cc13144
/model.6/m.0/cv1/conv/Conv_output_0: 3d96fc0f
/model.6/m.0/cv1/act/Sigmoid_output_0: 3c00c1dd
/model.6/m.0/cv1/act/Mul_output_0: 3cb441a3
/model.6/m.0/cv2/conv/Conv_output_0: 3d89615c
/model.6/m.0/cv2/act/Sigmoid_output_0: 3c010381
/model.6/m.0/cv2/act/Mul_output_0: 3cb1353c
/model.6/m.0/Add_output_0: 3d7bff9f
/model.6/m.1/cv1/conv/Conv_output_0: 3d8808d1
/model.6/m.1/cv1/act/Sigmoid_output_0: 3c00cc4d
/model.6/m.1/cv1/act/Mul_output_0: 3cd569a8
/model.6/m.1/cv2/conv/Conv_output_0: 3dae2c2e
/model.6/m.1/cv2/act/Sigmoid_output_0: 3c010a13
/model.6/m.1/cv2/act/Mul_output_0: 3d6b55b3
/model.6/m.1/Add_output_0: 3dabf345
/model.6/Concat_output_0: 3d71f2e6
/model.6/cv2/conv/Conv_output_0: 3d85cbc6
/model.6/cv2/act/Sigmoid_output_0: 3c00fe76
/model.6/cv2/act/Mul_output_0: 3ca6a61a
/model.7/conv/Conv_output_0: 3d88f65c
/model.7/act/Sigmoid_output_0: 3c010d02
/model.7/act/Mul_output_0: 3cc28bc7
/model.8/cv1/conv/Conv_output_0: 3d7bd73c
/model.8/cv1/act/Sigmoid_output_0: 3c00ddcf
/model.8/cv1/act/Mul_output_0: 3d118c12
/model.22/Reshape_16_output_0: 3d993bf8
/model.22/Concat_10_output_0: 3f1a7297
/model.22/cv2.2/cv2.2.0/act/Sigmoid_output_0: 3c010a14
/model.22/Reshape_20_output_0: 3d993bf8
/model.22/cv4.1/cv4.1.1/act/Sigmoid_output_0: 3c00802a
/model.22/cv3.2/cv3.2.1/act/Sigmoid_output_0: 3c010fc9
/model.8/Split_output_0: 3d118c12
/model.22/cv4.1/cv4.1.1/act/Mul_output_0: 3d010d94
/model.22/Mul_5_output_0: 402bfe1d
/model.22/Concat_26_output_0: 3e9f4871
/model.8/Split_output_1: 3c5163c8
/model.8/m.0/cv1/conv/Conv_output_0: 3daf7a0e
/model.8/m.0/cv1/act/Sigmoid_output_0: 3c039238
/model.8/m.0/cv1/act/Mul_output_0: 3cd14472
/model.8/m.0/cv2/conv/Conv_output_0: 3dba8ed2
/model.8/m.0/cv2/act/Sigmoid_output_0: 3c00ebbe
/model.8/m.0/cv2/act/Mul_output_0: 3d44212b
/model.8/m.0/Add_output_0: 3d8f48f7
/model.8/Concat_output_0: 3d257255
/model.8/cv2/conv/Conv_output_0: 3d9b55e0
/model.8/cv2/act/Sigmoid_output_0: 3c006a2a
/model.8/cv2/act/Mul_output_0: 3d03ae5d
/model.9/cv1/conv/Conv_output_0: 3d803814
/model.9/cv1/act/Sigmoid_output_0: 3c00c6cc
/model.9/cv1/act/Mul_output_0: 3d679d55
/model.9/m/MaxPool_output_0: 3d679d55
/model.9/m_1/MaxPool_output_0: 3d679d55
/model.9/m_2/MaxPool_output_0: 3d679d55
/model.9/Concat_output_0: 3d8ff457
/model.9/cv2/conv/Conv_output_0: 3d9089ee
/model.9/cv2/act/Sigmoid_output_0: 3bffef93
/model.9/cv2/act/Mul_output_0: 3cc19d4b
/model.10/Resize_output_0: 3cc19d4b
/model.11/Concat_output_0: 3ca6a61a
/model.12/cv1/conv/Conv_output_0: 3db0dcea
/model.12/cv1/act/Sigmoid_output_0: 3c01111f
/model.12/cv1/act/Mul_output_0: 3ceaa091
/model.22/cv4.2/cv4.2.2/Conv_output_0: 3d64fc6f
ONNXTRT_Broadcast_271_output: 3b810a14
/model.22/cv2.1/cv2.1.2/Conv_output_0: 3f071fbb
/model.22/Reshape_19_output_0: 3d993bf8
/model.22/Reshape_5_output_0: 3f9ff48a
/model.22/cv2.2/cv2.2.1/act/Mul_output_0: 3eaeae47
/model.12/Split_output_0: 3d12c3c5
/model.22/cv4.2/cv4.2.1/act/Mul_output_0: 3d914f94
/model.21/m.0/cv2/conv/Conv_output_0: 3e1b1ee7
/model.21/Split_output_0: 3d025bb5
/model.12/Split_output_1: 3cbffc81
/model.12/m.0/cv1/conv/Conv_output_0: 3d9e13c4
/model.12/m.0/cv1/act/Sigmoid_output_0: 3c0075b0
/model.12/m.0/cv1/act/Mul_output_0: 3cc2a906
/model.12/m.0/cv2/conv/Conv_output_0: 3da58880
/model.12/m.0/cv2/act/Sigmoid_output_0: 3c00bba6
/model.12/m.0/cv2/act/Mul_output_0: 3d110235
/model.12/Concat_output_0: 3d12c3c5
/model.12/cv2/conv/Conv_output_0: 3d96be59
/model.12/cv2/act/Sigmoid_output_0: 3c010e8d
/model.12/cv2/act/Mul_output_0: 3d02f6c8
/model.13/Resize_output_0: 3d02f6c8
/model.14/Concat_output_0: 3cea5c55
/model.15/cv1/conv/Conv_output_0: 3d5d98d5
/model.15/cv1/act/Sigmoid_output_0: 3c00c4d7
/model.15/cv1/act/Mul_output_0: 3d12817f
/model.22/Expand_4_output_0: 3d993bf8
/model.22/cv2.1/cv2.1.1/conv/Conv_output_0: 3e90d062
/model.22/Reshape_1_output_0: 3cd2ed5b
/model.22/Range_5_output_0: 3d912b57
/model.22/cv2.2/cv2.2.0/conv/Conv_output_0: 3ea67921
/model.22/cv4.2/cv4.2.1/act/Sigmoid_output_0: 3c01108c
/model.15/Split_output_0: 3d253abf
/model.22/cv3.2/cv3.2.1/conv/Conv_output_0: 3da7857a
/model.22/cv2.2/cv2.2.2/Conv_output_0: 3f9ff48a
/model.22/cv2.2/cv2.2.0/act/Mul_output_0: 3e2def6f
/model.15/Split_output_1: 3cea297e
/model.15/m.0/cv1/conv/Conv_output_0: 3d88891d
/model.15/m.0/cv1/act/Sigmoid_output_0: 3c00b8f2
/model.15/m.0/cv1/act/Mul_output_0: 3ca58f2b
/model.15/m.0/cv2/conv/Conv_output_0: 3d6e4932
/model.15/m.0/cv2/act/Sigmoid_output_0: 3c009748
/model.15/m.0/cv2/act/Mul_output_0: 3cff794f
/model.15/Concat_output_0: 3d12817f
/model.15/cv2/conv/Conv_output_0: 3d62b241
/model.15/cv2/act/Sigmoid_output_0: 3c00be4f
/model.15/cv2/act/Mul_output_0: 3d124703
/model.16/conv/Conv_output_0: 3d9519ec
/model.22/proto/cv1/conv/Conv_output_0: 3d5f5777
/model.22/cv4.0/cv4.0.0/conv/Conv_output_0: 3d2d228c
/model.22/cv2.0/cv2.0.0/conv/Conv_output_0: 3d76eca7
/model.22/cv3.0/cv3.0.0/conv/Conv_output_0: 3d5e9bda
/model.16/act/Sigmoid_output_0: 3c00b27d
/model.22/proto/cv1/act/Sigmoid_output_0: 3c00a000
/model.22/cv4.0/cv4.0.0/act/Sigmoid_output_0: 3c004abe
/model.22/cv2.0/cv2.0.0/act/Sigmoid_output_0: 3c00fc81
/model.22/cv3.0/cv3.0.0/act/Sigmoid_output_0: 3c00d94b
/model.16/act/Mul_output_0: 3cd14410
/model.22/proto/cv1/act/Mul_output_0: 3ce724b3
/model.22/cv4.0/cv4.0.0/act/Mul_output_0: 3cc1b870
/model.22/cv2.0/cv2.0.0/act/Mul_output_0: 3ca4822b
/model.22/cv3.0/cv3.0.0/act/Mul_output_0: 3d25c8b3
/model.17/Concat_output_0: 3d02f6c8
/model.22/proto/upsample/ConvTranspose_output_0: 3ca0489c
/model.22/cv4.0/cv4.0.1/conv/Conv_output_0: 3d96d63c
/model.22/cv2.0/cv2.0.1/conv/Conv_output_0: 3e476014
/model.22/cv3.0/cv3.0.1/conv/Conv_output_0: 3d4cd643
/model.18/cv1/conv/Conv_output_0: 3dc4244e
/model.22/proto/cv2/conv/Conv_output_0: 3d6c50cf
/model.22/cv4.0/cv4.0.1/act/Sigmoid_output_0: 3bff5180
/model.22/cv2.0/cv2.0.1/act/Sigmoid_output_0: 3c010a14
/model.22/cv3.0/cv3.0.1/act/Sigmoid_output_0: 3c00a349
/model.18/cv1/act/Sigmoid_output_0: 3c03d7a7
/model.22/proto/cv2/act/Sigmoid_output_0: 3c00faf9
/model.22/cv4.0/cv4.0.1/act/Mul_output_0: 3d014973
/model.22/cv2.0/cv2.0.1/act/Mul_output_0: 3dc0c83b
/model.22/cv3.0/cv3.0.1/act/Mul_output_0: 3d262355
/model.18/cv1/act/Mul_output_0: 3d118e57
/model.22/proto/cv2/act/Mul_output_0: 3c89d319
/model.22/cv4.0/cv4.0.2/Conv_output_0: 3d236619
/model.22/cv2.0/cv2.0.2/Conv_output_0: 3e66740d
/model.22/cv3.0/cv3.0.2/Conv_output_0: 3e6e9b0f
/model.22/Concat_28_output_0: 3eac032c
/model.22/cv4.2/cv4.2.0/act/Mul_output_0: 3dcace6c
ONNXTRT_Broadcast_279_output: 3e810a14
/model.22/dfl/conv/Conv_output_0: 3de382f4
/model.22/cv4.2/cv4.2.1/conv/Conv_output_0: 3e0493b8
/model.22/cv3.2/cv3.2.0/act/Sigmoid_output_0: 3c020b4c
/model.18/Split_output_0: 3d925149
/model.22/cv3.2/cv3.2.1/act/Mul_output_0: 3d905cfb
/model.22/Reshape_15_output_0: 3e1d4449
/model.22/Reshape_17_output_0: 3d993bf8
/model.18/Split_output_1: 3cb28305
/model.22/proto/cv3/conv/Conv_output_0: 3d73a3ba
/model.22/Concat_4_output_0: 3e66740d
/model.18/m.0/cv1/conv/Conv_output_0: 3d83af71
/model.22/proto/cv3/act/Sigmoid_output_0: 3c00e695
/model.21/cv2/act/Mul_output_0: 3d5722ef
/model.22/Constant_74_output_0_output: 3c810a14
/model.18/m.0/cv1/act/Sigmoid_output_0: 3c008bdb
output1: 3ce75b60
/model.21/m.0/cv2/act/Mul_output_0: 3d287484
/model.22/cv4.1/cv4.1.1/conv/Conv_output_0: 3d6a3f73
/model.22/Reshape_18_output_0: 3d993bf8
/model.22/cv2.2/cv2.2.1/act/Sigmoid_output_0: 3c010a14
/model.21/cv2/act/Sigmoid_output_0: 3c010a14
/model.22/cv3.1/cv3.1.1/act/Mul_output_0: 3d01ed7f
/model.18/m.0/cv1/act/Mul_output_0: 3c90fafa
/model.22/Reshape_2_output_0: 3d64fc6f
ONNXTRT_ShapeShuffle_267_output: 3c010a14
/model.22/cv3.2/cv3.2.0/conv/Conv_output_0: 3da77ab4
/model.22/Unsqueeze_9_output_0: 3e1d4449
/model.22/ConstantOfShape_2_output_0: 0
/model.22/cv3.2/cv3.2.2/Conv_output_0: 3ebed3e7
/model.21/cv1/act/Sigmoid_output_0: 3c0111b0
/model.18/m.0/cv2/conv/Conv_output_0: 3d6c9ef6
/model.22/Expand_2_output_0: 3e1d4449
/model.22/cv3.1/cv3.1.1/conv/Conv_output_0: 3d74f2eb
ONNXTRT_ShapeShuffle_274_output: 0
/model.22/Squeeze_1_output_0_output: 3e010a14
/model.22/Constant_21_output_0_output: 0
/model.22/Constant_22_output_0_output: 3c010a14
/model.22/ConstantOfShape_1_output_0: 0
/model.22/Unsqueeze_15_output_0: 3e9f4871
ONNXTRT_ShapeShuffle_198_output: 0
ONNXTRT_ShapeShuffle_191_output: 3c010a14
(Unnamed Layer* 422) [Constant]_output: 0
/model.22/Expand_3_output_0: 3e1d4449
/model.22/Concat_27_output_0: 3e810a14
/model.22/Range_output_0: 3e9d4449
ONNXTRT_ShapeShuffle_104_output: 3c010a14
/model.21/cv1/conv/Conv_output_0: 3dfc034e
/model.21/cv2/conv/Conv_output_0: 3e09f7cb
/model.22/Sub_output_0: 3e9e21a8
/model.21/m.0/cv1/conv/Conv_output_0: 3da8f6f6
ONNXTRT_Broadcast_203_output: 3e010a14
/model.21/m.0/cv1/act/Sigmoid_output_0: 3c0111cd
/model.22/Reshape_13_output_0: 3e1d4449
/model.22/Range_1_output_0: 3e9d4449
ONNXTRT_ShapeShuffle_114_output: 3c010a14
/model.22/cv3.1/cv3.1.1/act/Sigmoid_output_0: 3c010bde
/model.18/m.0/cv2/act/Sigmoid_output_0: 3c00b37d
/model.21/m.0/cv1/act/Mul_output_0: 3cb24641
/model.22/Reshape_3_output_0: 3e66740d
/model.22/Constant_23_output_0_output: 3b810a14
ONNXTRT_Broadcast_output: 3b810a14
/model.22/Reshape_7_output_0: 3e9f4871
ONNXTRT_Broadcast_118_output: 3b810a14
/model.22/Reshape_6_output_0: 3e9f4871
/model.22/cv4.1/cv4.1.2/Conv_output_0: 3cd2ed5b
/model.21/cv1/act/Mul_output_0: 3d025bb5
/model.18/m.0/cv2/act/Mul_output_0: 3d0077ae
/model.22/dfl/Transpose_output_0: 3f1a7297
/model.22/Concat_3_output_0: 3d35dddb
(Unnamed Layer* 298) [Constant]_output: 0
ONNXTRT_ShapeShuffle_121_output: 0
/model.22/ConstantOfShape_output_0: 0
/model.21/m.0/cv2/act/Sigmoid_output_0: 3c010a14
/model.22/Slice_1_output_0: 3e12249e
/model.22/Split_1_output_0: 3f1a7297
/model.22/Reshape_12_output_0: 3e1d4449
/model.22/Reshape_8_output_0: 3e9f4871
/model.22/Reshape_9_output_0: 3e9f4871
/model.18/Concat_output_0: 3d118e57
/model.22/Reshape_output_0: 3d236619
/model.22/Squeeze_output_0_output: 3d810a14
ONNXTRT_Broadcast_127_output: 3d810a14
/model.22/Add_2_output_0: 3d810a14
/model.22/Squeeze_2_output_0_output: 3e810a14
/model.18/cv2/conv/Conv_output_0: 3da01b22
ONNXTRT_Broadcast_379_output: 3c810a14
/model.21/Concat_output_0: 3d27b00c
/model.22/Range_2_output_0: 3e193bf8
ONNXTRT_ShapeShuffle_257_output: 3c010a14
/model.22/Concat_6_output_0: 3f9ff48a
/model.22/Range_3_output_0: 3e193bf8
ONNXTRT_Broadcast_386_output: 3e810a14
/model.22/Unsqueeze_10_output_0: 3e1d4449
/model.22/cv2.1/cv2.1.1/act/Sigmoid_output_0: 3c010a14
ONNXTRT_Broadcast_195_output: 3b810a14
/model.22/Expand_output_0: 3e9f4871
/model.22/Add_5_output_0: 3e010a14
/model.22/Range_4_output_0: 3d912b57
/model.22/cv2.1/cv2.1.1/act/Mul_output_0: 3e1b4ec9
/model.22/cv2.2/cv2.2.1/conv/Conv_output_0: 3eebb0f4
ONNXTRT_ShapeShuffle_181_output: 3c010a14
/model.22/Concat_19_output_0: 3e1d4449
/model.22/Unsqueeze_12_output_0: 3d993bf8
/model.22/Add_11_output_0: 3f2c032c
output0: 3f8d22f2
/model.22/Reshape_4_output_0: 3f071fbb
/model.22/Expand_1_output_0: 3e9f4871
/model.18/cv2/act/Sigmoid_output_0: 3c0111f5
/model.22/Add_8_output_0: 3e810a14
/model.22/Unsqueeze_6_output_0: 3e9f4871
/model.22/Unsqueeze_7_output_0: 3e9f4871
/model.18/cv2/act/Mul_output_0: 3d01f2db
/model.22/Concat_14_output_0: 3e9f4871
/model.19/conv/Conv_output_0: 3de0cf18
/model.22/cv4.1/cv4.1.0/conv/Conv_output_0: 3da34ba4
/model.22/cv2.1/cv2.1.0/conv/Conv_output_0: 3e01d4ef
/model.22/cv3.1/cv3.1.0/conv/Conv_output_0: 3d6fc51e
/model.22/Reshape_10_output_0: 3e9f4871
/model.19/act/Sigmoid_output_0: 3c04182b
/model.22/cv4.1/cv4.1.0/act/Sigmoid_output_0: 3c021335
/model.22/cv2.1/cv2.1.0/act/Sigmoid_output_0: 3c010a14
/model.22/cv3.1/cv3.1.0/act/Sigmoid_output_0: 3c010515
/model.19/act/Mul_output_0: 3cd34a71
/model.22/cv4.1/cv4.1.0/act/Mul_output_0: 3d13e06f
/model.22/cv2.1/cv2.1.0/act/Mul_output_0: 3d4082b2
/model.22/cv3.1/cv3.1.0/act/Mul_output_0: 3d122c6c
