TRT-100900-EntropyCalibration2
images: 3c008912
/model.0/conv/Conv_output_0: 3e6f010c
/model.22/Constant_7_output_0_output: 3e810a14
/model.22/Split_output_0: 3d810a14
/model.22/Split_output_1: 3e010a14
/model.22/Split_output_2: 3e810a14
/model.22/Transpose_output_0: 3f204a85
/model.22/Reshape_13_output_0: 3e1d4449
/model.22/Unsqueeze_7_output_0: 3e9f4871
/model.0/act/Sigmoid_output_0: 3c010a14
/model.22/Concat_23_output_0: 3e810a14
/model.22/Squeeze_output_0: 3d810a14
/model.22/Squeeze_1_output_0: 3e010a14
/model.22/Squeeze_2_output_0: 3e810a14
/model.22/Reshape_11_output_0: 3e9f4871
/model.22/Concat_10_output_0: 3f204a85
/model.0/act/Mul_output_0: 3e16db6f
/model.22/Add_11_output_0: 3fa0beb6
/model.1/conv/Conv_output_0: 3f152814
/model.1/act/Sigmoid_output_0: 3c010a14
/model.1/act/Mul_output_0: 3eb531bf
/model.2/cv1/conv/Conv_output_0: 3eb9b560
/model.2/cv1/act/Sigmoid_output_0: 3c010a14
/model.2/cv1/act/Mul_output_0: 3dc719a4
/model.22/Split_1_output_0: 3e8a0c5e
/model.22/Concat_22_output_0: 3f204a85
/model.22/Range_4_output_0: 3e193bf8
/model.22/cv3.1/cv3.1.1/act/Mul_output_0: 3d2745b2
/model.22/Reshape_7_output_0: 3f204a85
(Unnamed Layer* 508) [Constant]_output: 0
/model.2/Split_output_0: 3dc68464
ONNXTRT_ShapeShuffle_269_output: 3c010a14
/model.22/Concat_20_output_0: 3e1d4449
/model.22/Concat_1_output_0: 3e6ea754
/model.2/Split_output_1: 3d692034
/model.2/m.0/cv1/conv/Conv_output_0: 3e99d2b3
/model.2/m.0/cv1/act/Sigmoid_output_0: 3c010a14
/model.2/m.0/cv1/act/Mul_output_0: 3dc83f71
/model.2/m.0/cv2/conv/Conv_output_0: 3e22a5fc
/model.2/m.0/cv2/act/Sigmoid_output_0: 3c010a14
/model.2/m.0/cv2/act/Mul_output_0: 3dc51f00
/model.2/m.0/Add_output_0: 3e3bd4c7
/model.2/Concat_output_0: 3dc719a4
/model.2/cv2/conv/Conv_output_0: 3e14093b
/model.2/cv2/act/Sigmoid_output_0: 3c01121e
/model.2/cv2/act/Mul_output_0: 3d23f825
/model.3/conv/Conv_output_0: 3d69b1e5
/model.3/act/Sigmoid_output_0: 3c003db4
/model.3/act/Mul_output_0: 3d129ecf
/model.4/cv1/conv/Conv_output_0: 3d7f2e24
/model.4/cv1/act/Sigmoid_output_0: 3c004d6c
/model.4/cv1/act/Mul_output_0: 3cd1fabc
ONNXTRT_Broadcast_273_output: 3b810a14
/model.22/cv3.1/cv3.1.1/conv/Conv_output_0: 3d91d630
/model.22/Mul_5_output_0: 40a34f15
/model.22/cv3.2/cv3.2.2/Conv_output_0: 3e54822f
/model.22/Sigmoid_output_0: 3bf72982
/model.21/cv1/conv/Conv_output_0: 3db1adce
/model.4/Split_output_0: 3cd1fabc
/model.22/dfl/Transpose_output_0: 3e8a0c5e
ONNXTRT_Broadcast_381_output: 3c810a14
/model.22/cv2.2/cv2.2.1/act/Sigmoid_output_0: 3c010a14
/model.4/Split_output_1: 3cc1108d
/model.4/m.0/cv1/conv/Conv_output_0: 3d567182
/model.4/m.0/cv1/act/Sigmoid_output_0: 3c003a78
/model.4/m.0/cv1/act/Mul_output_0: 3c9aae29
/model.4/m.0/cv2/conv/Conv_output_0: 3d49e218
/model.4/m.0/cv2/act/Sigmoid_output_0: 3bff2ef8
/model.4/m.0/cv2/act/Mul_output_0: 3cc1fd81
/model.4/m.0/Add_output_0: 3d3057d1
/model.4/m.1/cv1/conv/Conv_output_0: 3d631b7f
/model.4/m.1/cv1/act/Sigmoid_output_0: 3bfc7bac
/model.4/m.1/cv1/act/Mul_output_0: 3c3178a7
/model.4/m.1/cv2/conv/Conv_output_0: 3d865d45
/model.4/m.1/cv2/act/Sigmoid_output_0: 3c00cb10
/model.4/m.1/cv2/act/Mul_output_0: 3d26b719
/model.4/m.1/Add_output_0: 3d8c9f94
/model.4/Concat_output_0: 3d401ae2
/model.4/cv2/conv/Conv_output_0: 3d796cbf
/model.4/cv2/act/Sigmoid_output_0: 3c000ef6
/model.4/cv2/act/Mul_output_0: 3c8fee42
/model.5/conv/Conv_output_0: 3d94ee83
/model.5/act/Sigmoid_output_0: 3c001584
/model.5/act/Mul_output_0: 3ca57cbf
/model.6/cv1/conv/Conv_output_0: 3db05c62
/model.6/cv1/act/Sigmoid_output_0: 3c0085a3
/model.6/cv1/act/Mul_output_0: 3d024d45
/model.22/Unsqueeze_9_output_0: 3e1d4449
/model.22/cv2.1/cv2.1.1/conv/Conv_output_0: 3e807ef0
/model.19/conv/Conv_output_0: 3d87f879
/model.22/ConstantOfShape_1_output_0: 0
/model.22/Unsqueeze_12_output_0: 3f204a85
/model.22/Reshape_2_output_0: 3e04ad07
/model.6/Split_output_0: 3d024d45
/model.22/cv3.1/cv3.1.0/act/Sigmoid_output_0: 3c0083f6
/model.22/dfl/Softmax_output: 3c00f18d
/model.22/Sub_output_0: 3f2034d1
/model.6/Split_output_1: 3c87b1ed
/model.6/m.0/cv1/conv/Conv_output_0: 3d7c6f7d
/model.6/m.0/cv1/act/Sigmoid_output_0: 3c00a23d
/model.6/m.0/cv1/act/Mul_output_0: 3c9a8e99
/model.6/m.0/cv2/conv/Conv_output_0: 3d75f404
/model.6/m.0/cv2/act/Sigmoid_output_0: 3c004128
/model.6/m.0/cv2/act/Mul_output_0: 3c9a527f
/model.6/m.0/Add_output_0: 3d2e4235
/model.6/m.1/cv1/conv/Conv_output_0: 3d8df67f
/model.6/m.1/cv1/act/Sigmoid_output_0: 3c00b1a8
/model.6/m.1/cv1/act/Mul_output_0: 3c349fe8
/model.6/m.1/cv2/conv/Conv_output_0: 3d963a9c
/model.6/m.1/cv2/act/Sigmoid_output_0: 3c00cec9
/model.6/m.1/cv2/act/Mul_output_0: 3d12511f
/model.6/m.1/Add_output_0: 3d829fe1
/model.6/Concat_output_0: 3d2775d2
/model.6/cv2/conv/Conv_output_0: 3d6fa29a
/model.6/cv2/act/Sigmoid_output_0: 3c00b383
/model.6/cv2/act/Mul_output_0: 3c914169
/model.7/conv/Conv_output_0: 3d736de4
/model.7/act/Sigmoid_output_0: 3c0018e1
/model.7/act/Mul_output_0: 3cb376fd
/model.8/cv1/conv/Conv_output_0: 3d8d2c1f
/model.8/cv1/act/Sigmoid_output_0: 3c00e6d0
/model.8/cv1/act/Mul_output_0: 3ce7f6e9
/model.22/cv2.2/cv2.2.1/conv/Conv_output_0: 3e9a1cfc
/model.22/cv2.2/cv2.2.0/act/Sigmoid_output_0: 3c0111f9
/model.22/Concat_2_output_0: 3e04ad07
ONNXTRT_ShapeShuffle_276_output: 0
/model.22/cv3.2/cv3.2.1/act/Mul_output_0: 3d004acd
/model.22/cv2.2/cv2.2.0/conv/Conv_output_0: 3de203dd
/model.8/Split_output_0: 3d10b1c9
/model.22/Slice_1_output_0: 3db50f7c
/model.22/Unsqueeze_6_output_0: 3e9f4871
/model.21/cv2/act/Sigmoid_output_0: 3c00e871
/model.8/Split_output_1: 3c736375
/model.8/m.0/cv1/conv/Conv_output_0: 3d838243
/model.8/m.0/cv1/act/Sigmoid_output_0: 3c007c77
/model.8/m.0/cv1/act/Mul_output_0: 3c8748aa
/model.8/m.0/cv2/conv/Conv_output_0: 3d95c6ad
/model.8/m.0/cv2/act/Sigmoid_output_0: 3c00ebe8
/model.8/m.0/cv2/act/Mul_output_0: 3d28874b
/model.8/m.0/Add_output_0: 3d7ebb32
/model.8/Concat_output_0: 3d0fbe91
/model.8/cv2/conv/Conv_output_0: 3d8b01f7
/model.8/cv2/act/Sigmoid_output_0: 3c00c473
/model.8/cv2/act/Mul_output_0: 3cb3a9ad
/model.9/cv1/conv/Conv_output_0: 3d38a437
/model.9/cv1/act/Sigmoid_output_0: 3bffa254
/model.9/cv1/act/Mul_output_0: 3d3f8f5f
/model.9/m/MaxPool_output_0: 3d3f8f5f
/model.9/m_1/MaxPool_output_0: 3d3f8f5f
/model.9/m_2/MaxPool_output_0: 3d3f8f5f
/model.9/Concat_output_0: 3d684025
/model.9/cv2/conv/Conv_output_0: 3d5fff73
/model.9/cv2/act/Sigmoid_output_0: 3c003dae
/model.9/cv2/act/Mul_output_0: 3c244d05
/model.10/Resize_output_0: 3c244d05
/model.11/Concat_output_0: 3c90dc80
/model.12/cv1/conv/Conv_output_0: 3d774343
/model.12/cv1/act/Sigmoid_output_0: 3c009f4b
/model.12/cv1/act/Mul_output_0: 3ce5e9db
/model.22/Concat_15_output_0: 3e9f4871
/model.18/cv2/act/Sigmoid_output_0: 3c00edb1
ONNXTRT_ShapeShuffle_259_output: 3c010a14
/model.19/act/Mul_output_0: 3cc1eab6
/model.22/Expand_3_output_0: 3e9f4871
ONNXTRT_ShapeShuffle_183_output: 3c010a14
/model.12/Split_output_0: 3ce5e9db
/model.22/Range_5_output_0: 3e193bf8
ONNXTRT_Broadcast_195_output: 3b810a14
/model.22/Concat_24_output_0: 3f20beb6
/model.12/Split_output_1: 3ca51119
/model.12/m.0/cv1/conv/Conv_output_0: 3d6a5149
/model.12/m.0/cv1/act/Sigmoid_output_0: 3c007d55
/model.12/m.0/cv1/act/Mul_output_0: 3c87852f
/model.12/m.0/cv2/conv/Conv_output_0: 3d916b64
/model.12/m.0/cv2/act/Sigmoid_output_0: 3c0109cc
/model.12/m.0/cv2/act/Mul_output_0: 3cb159bd
/model.12/Concat_output_0: 3ce6a5ca
/model.12/cv2/conv/Conv_output_0: 3da0c439
/model.12/cv2/act/Sigmoid_output_0: 3c00d634
/model.12/cv2/act/Mul_output_0: 3cd4dd3e
/model.13/Resize_output_0: 3cd4dd3e
/model.14/Concat_output_0: 3cd4dd3e
/model.15/cv1/conv/Conv_output_0: 3d7c52aa
/model.15/cv1/act/Sigmoid_output_0: 3c00e317
/model.15/cv1/act/Mul_output_0: 3ce5d82b
/model.22/cv3.2/cv3.2.1/conv/Conv_output_0: 3d65db02
/model.22/cv2.1/cv2.1.0/act/Sigmoid_output_0: 3c010a14
/model.22/cv2.1/cv2.1.1/act/Sigmoid_output_0: 3c010a14
/model.22/dfl/Reshape_output_0: 3e8a0c5e
/model.22/Transpose_1_output_0: 3e810a14
/model.22/Expand_2_output_0: 3e9f4871
/model.15/Split_output_0: 3d0fcdf1
/model.21/m.0/cv1/act/Mul_output_0: 3c8096c5
/model.22/Reshape_1_output_0: 3e6ea754
/model.21/cv1/act/Mul_output_0: 3cb45f8a
/model.15/Split_output_1: 3cc052e3
/model.15/m.0/cv1/conv/Conv_output_0: 3d5b6001
/model.15/m.0/cv1/act/Sigmoid_output_0: 3bff72b7
/model.15/m.0/cv1/act/Mul_output_0: 3c9ab127
/model.15/m.0/cv2/conv/Conv_output_0: 3d9f0f76
/model.15/m.0/cv2/act/Sigmoid_output_0: 3c008c19
/model.15/m.0/cv2/act/Mul_output_0: 3d26d149
/model.15/Concat_output_0: 3d01c715
/model.15/cv2/conv/Conv_output_0: 3dafa0b0
/model.15/cv2/act/Sigmoid_output_0: 3c006d08
/model.15/cv2/act/Mul_output_0: 3cd0e8f1
/model.16/conv/Conv_output_0: 3d95ed8b
/model.22/cv2.0/cv2.0.0/conv/Conv_output_0: 3dbe8a98
/model.22/cv3.0/cv3.0.0/conv/Conv_output_0: 3d9dfd29
/model.16/act/Sigmoid_output_0: 3c00ea71
/model.22/cv2.0/cv2.0.0/act/Sigmoid_output_0: 3c0315d4
/model.22/cv3.0/cv3.0.0/act/Sigmoid_output_0: 3c0417e8
/model.16/act/Mul_output_0: 3cbfb9cc
/model.22/cv2.0/cv2.0.0/act/Mul_output_0: 3cb2427a
/model.22/cv3.0/cv3.0.0/act/Mul_output_0: 3d27f6e4
/model.17/Concat_output_0: 3cbfb9cc
/model.22/cv2.0/cv2.0.1/conv/Conv_output_0: 3e81b421
/model.22/cv3.0/cv3.0.1/conv/Conv_output_0: 3dc006dd
/model.18/cv1/conv/Conv_output_0: 3d96c6e7
/model.22/cv2.0/cv2.0.1/act/Sigmoid_output_0: 3c010a14
/model.22/cv3.0/cv3.0.1/act/Sigmoid_output_0: 3c011222
/model.18/cv1/act/Sigmoid_output_0: 3c00b258
/model.22/cv2.0/cv2.0.1/act/Mul_output_0: 3dc22857
/model.22/cv3.0/cv3.0.1/act/Mul_output_0: 3d2758a0
/model.18/cv1/act/Mul_output_0: 3cd11fea
/model.22/cv2.0/cv2.0.2/Conv_output_0: 3e8fb678
/model.22/cv3.0/cv3.0.2/Conv_output_0: 3ebd0f7b
ONNXTRT_Broadcast_388_output: 3e810a14
/model.22/ConstantOfShape_2_output_0: 0
/model.22/Unsqueeze_3_output_0: 3f204a85
/model.19/act/Sigmoid_output_0: 3c01096d
/model.21/m.0/cv2/act/Mul_output_0: 3d014c02
ONNXTRT_Broadcast_205_output: 3e010a14
/model.18/Split_output_0: 3cd0afcc
(Unnamed Layer* 402) [Constant]_output: 0
/model.21/Concat_output_0: 3cd37939
/model.22/Reshape_10_output_0: 3e9f4871
/model.18/Split_output_1: 3cd2ee95
/model.22/Concat_output_0: 3e9152cb
/model.18/m.0/cv1/conv/Conv_output_0: 3d6b3de9
/model.22/cv3.2/cv3.2.1/act/Sigmoid_output_0: 3c01ecdf
/model.22/cv3.1/cv3.1.0/conv/Conv_output_0: 3d8d2536
/model.18/m.0/cv1/act/Sigmoid_output_0: 3bfdc9a8
/model.22/Constant_67_output_0_output: 3c810a14
/model.22/Split_1_output_1: 3ec499f2
/model.22/Reshape_14_output_0: 3e1d4449
ONNXTRT_ShapeShuffle_200_output: 0
ONNXTRT_Broadcast_281_output: 3e810a14
/model.21/cv2/act/Mul_output_0: 3c721623
/model.18/m.0/cv1/act/Mul_output_0: 3c7fa08a
ONNXTRT_Broadcast_271_output: 3b810a14
/model.20/Concat_output_0: 3cc1eab6
/model.22/cv3.2/cv3.2.0/act/Mul_output_0: 3ce895a3
/model.21/Split_output_0: 3cb45f8a
/model.18/m.0/cv2/conv/Conv_output_0: 3daa4e8f
/model.22/Expand_4_output_0: 3e1d4449
/model.22/cv2.1/cv2.1.0/conv/Conv_output_0: 3dc69c81
/model.22/dfl/Softmax_output_0: 3c00f18d
/model.22/Constant_14_output_0_output: 0
/model.22/Constant_15_output_0_output: 3c010a14
/model.22/Add_10_output_0: 3f21c6e3
/model.22/Range_3_output_0: 3e9d4449
/model.21/m.0/cv2/conv/Conv_output_0: 3dc9ca78
/model.22/cv3.1/cv3.1.1/act/Sigmoid_output_0: 3c011173
/model.21/m.0/cv2/act/Sigmoid_output_0: 3c00ede1
/model.22/Range_2_output_0: 3e9d4449
/model.22/Concat_6_output_0: 3e8da923
/model.22/Range_output_0: 3f1f4871
ONNXTRT_ShapeShuffle_108_output: 3c010a14
/model.22/Reshape_15_output_0: 3e1d4449
/model.22/cv2.1/cv2.1.1/act/Mul_output_0: 3e264f84
/model.22/Reshape_12_output_0: 3e9f4871
ONNXTRT_Broadcast_197_output: 3b810a14
ONNXTRT_ShapeShuffle_193_output: 3c010a14
/model.22/cv3.1/cv3.1.0/act/Mul_output_0: 3d018e68
/model.22/cv2.1/cv2.1.2/Conv_output_0: 3e2f10a1
/model.22/Range_1_output_0: 3f1f4871
ONNXTRT_ShapeShuffle_118_output: 3c010a14
/model.21/cv1/act/Sigmoid_output_0: 3c00e22d
/model.18/m.0/cv2/act/Sigmoid_output_0: 3c00d98a
/model.22/Reshape_output_0: 3e9152cb
/model.22/Constant_16_output_0_output: 3b810a14
ONNXTRT_Broadcast_output: 3b810a14
/model.22/Reshape_4_output_0: 3f204a85
ONNXTRT_Broadcast_122_output: 3b810a14
/model.22/Reshape_3_output_0: 3f204a85
/model.18/cv2/act/Mul_output_0: 3c9995dd
/model.22/Reshape_8_output_0: 3e9f4871
/model.18/m.0/cv2/act/Mul_output_0: 3d10e17d
(Unnamed Layer* 288) [Constant]_output: 0
ONNXTRT_ShapeShuffle_125_output: 0
/model.22/ConstantOfShape_output_0: 0
/model.22/cv3.2/cv3.2.0/conv/Conv_output_0: 3d653de7
/model.22/Reshape_17_output_0: 3e1d4449
/model.22/Unsqueeze_4_output_0: 3f204a85
/model.22/Div_1_output_0: 3f20beb6
/model.22/Reshape_5_output_0: 3f204a85
/model.22/Reshape_6_output_0: 3f204a85
/model.18/Concat_output_0: 3d10e17d
ONNXTRT_Broadcast_130_output: 3d810a14
/model.22/Add_2_output_0: 3d810a14
/model.22/dfl/Reshape_1_output_0: 3db543f9
/model.18/cv2/conv/Conv_output_0: 3dba752f
/model.22/cv2.1/cv2.1.0/act/Mul_output_0: 3d271b84
/model.22/Reshape_16_output_0: 3e1d4449
/model.21/m.0/cv1/conv/Conv_output_0: 3d866e2c
/model.22/cv2.2/cv2.2.2/Conv_output_0: 3ddba542
/model.22/cv2.2/cv2.2.1/act/Mul_output_0: 3e1778cf
/model.22/cv3.1/cv3.1.2/Conv_output_0: 3ea254ec
/model.22/Expand_5_output_0: 3e1d4449
output0: 40a34f15
/model.21/cv2/conv/Conv_output_0: 3e05ee91
/model.22/dfl/conv/Conv_output_0: 3db543f9
/model.22/Expand_output_0: 3f204a85
/model.21/Split_output_1: 3ca5d5a1
/model.22/Add_5_output_0: 3e010a14
/model.22/cv2.2/cv2.2.0/act/Mul_output_0: 3d2821f6
/model.22/Slice_output_0: 3db88b27
/model.22/Add_8_output_0: 3e810a14
/model.22/Unsqueeze_10_output_0: 3e1d4449
/model.22/Reshape_9_output_0: 3e9f4871
/model.22/cv3.2/cv3.2.0/act/Sigmoid_output_0: 3c00e73f
/model.21/m.0/cv1/act/Sigmoid_output_0: 3c005e2d
/model.22/Sub_1_output_0: 3e336cd7
/model.22/Expand_1_output_0: 3f204a85
